layers 8
layer 0 Dense
4 8
[ 3.3672950e-03 -1.6441802e-04 -1.8261211e-01 -4.9334751e-03
 -1.3736972e-03 -5.3799985e-04 -3.1343099e-01 -1.9609660e-01]
[-8.2125474e-04 -5.6954607e-04 -1.8345791e-01  5.9412193e-04
 -4.7014575e-03 -1.1366773e-04  1.1240894e-01 -1.9709741e-01]
[ 0.6912182  -3.368336    0.14471264  0.10610437  0.05706036  0.06470889
  0.08644687 -0.32577246]
[ 0.15858418 -4.473797   -0.33563492 -0.48935512  0.23674561 -0.25482994
 -0.08799551  0.24202238]
[-0.10162275  4.442758    1.1195722  -0.5073521  -0.57538766  0.03229277
 -0.5847875   1.0898776 ]
layer 1 Activation
relu
layer 2 Dense
8 8
[-0.06447925 -0.20914896  0.13430153  0.0209769   0.24444406  0.00521232
 -0.47318447  0.16038464]
[-0.14830722 -0.1478736  -0.11347405  0.42886287 -0.568419   -0.04856281
 -0.02113407 -0.059277  ]
[ 0.01959734  0.09066442  0.01779702  0.1265822   0.1553268   0.30699703
 -0.4930714   0.36509126]
[ 0.02988844 -0.49769747  0.46564212  0.08760013 -0.24560964 -0.22198127
 -0.03828145  0.19757915]
[-0.00957831  0.13463248 -0.328063   -0.01067226  0.08340084 -0.00929328
 -0.25495628 -0.06394447]
[ 2.85663791e-02 -1.15274586e-01  6.98651606e-03  1.76532986e-03
  5.73678851e-01  2.41962014e-04 -5.36646247e-01  6.47973828e-03]
[-0.39461124  0.3184148  -0.28198916  0.3042397   0.44712833  0.22903067
  0.5704947   0.4253368 ]
[-0.02616651 -0.09818504 -0.01986845  0.0747754  -0.15001886 -0.28960437
 -0.4841262   0.3900767 ]
[ 0.02294193  0.48618338  0.6619864  -0.01774505 -0.3593429   0.6008118
 -0.18591636  0.5838819 ]
layer 3 Activation
relu
layer 4 Dense
8 16
[-0.05771911 -0.37112242  0.02955914 -0.39318705 -0.03215178 -0.04942486
  0.45056042 -0.03005193  0.17625576  0.29957107 -0.08497288  0.03780318
  0.03733749  0.02935234  0.03668882 -0.19191527]
[-0.22218521 -0.05046854  0.03651904 -0.03437475  0.0449107   0.07973471
  0.09790274  0.19164981  0.14348526  0.4000075  -0.00342321  0.02556744
  0.08228752  0.17777976  0.2819972  -0.31991118]
[-0.40102887  0.06608392 -0.4823128  -0.30107194 -0.01338524  0.0575253
 -0.46276295  0.18167493  0.0815349   0.23599924 -0.0416998   0.0481329
  0.07834075  0.07369665  0.18971696  0.14638811]
[-0.0468178  -0.21864158 -0.37504807 -0.05861716  0.4914831  -0.12828873
 -0.13711593  0.5026968   0.1830825  -0.15777755 -0.32869884 -0.08081985
  0.17703082  0.10173547 -0.4009454  -0.0397956 ]
[-0.38975763  0.15704437  0.26462284 -0.1091588  -0.10910556  0.09475528
  0.15220521  0.16837813 -0.1873543  -0.38537374 -0.21603483  0.00446076
  0.33998248  0.02059183  0.07218122 -0.35046324]
[ 0.35645604  0.14942883  0.3000379   0.18765043 -0.11534615 -0.03874383
  0.0388955  -0.01356068 -0.17984554 -0.33856726 -0.056336   -0.01565586
 -0.08169088  0.00230539 -0.08419963  0.04052226]
[-0.13476193  0.37944093  0.48087752 -0.44152337  0.01774093 -0.22274032
 -0.19710365  0.29389068  0.4855985   0.08663999 -0.30075634  0.35629913
 -0.2843041   0.3565525   0.42017874 -0.19981515]
[-0.30943936 -0.453353    0.19856177  0.03969368  0.16459386  0.02944543
 -0.31481257 -0.13349885 -0.04663557 -0.10556249  0.08890223  0.02092486
 -0.04638052  0.6632585   0.09369364 -0.51261556]
[-0.03176555 -0.05590354 -0.15276472 -0.01922333  0.30121648  0.7202746
 -0.03928701 -0.09340633 -0.21969539 -0.3994512   2.1254482   0.20149747
 -0.1404099   0.28863773 -0.2739489  -0.08302213]
layer 5 Activation
relu
layer 6 Dense
16 2
[0.36092874 0.37462273]
[-0.48143056 -0.07297097]
[-0.3159466 -0.3767311]
[-0.48523584  0.43480518]
[ 0.23282589 -0.34352192]
[ 0.01868702 -0.02071145]
[-0.16526122  0.49369687]
[-0.28554705  0.26810244]
[-0.19946985  0.19901668]
[-0.32370877  0.35124165]
[ 0.06259411 -0.0215452 ]
[-0.00521371  0.00720242]
[ 0.08261219 -0.08671577]
[ 0.4819755  -0.44178984]
[-0.01890893  0.02926538]
[0.09756208 0.09166601]
[0.71362966 0.1667381 ]
layer 7 Activation
linear
